const unsigned char trained_onnx[] = {
  0x08, 0x07, 0x12, 0x07, 0x74, 0x66, 0x32, 0x6f, 0x6e, 0x6e, 0x78, 0x1a,
  0x0d, 0x31, 0x2e, 0x31, 0x34, 0x2e, 0x30, 0x20, 0x38, 0x66, 0x38, 0x64,
  0x34, 0x39, 0x3a, 0xde, 0x30, 0x0a, 0xa2, 0x02, 0x0a, 0x01, 0x78, 0x0a,
  0x40, 0x53, 0x74, 0x61, 0x74, 0x65, 0x66, 0x75, 0x6c, 0x50, 0x61, 0x72,
  0x74, 0x69, 0x74, 0x69, 0x6f, 0x6e, 0x65, 0x64, 0x43, 0x61, 0x6c, 0x6c,
  0x2f, 0x73, 0x65, 0x71, 0x75, 0x65, 0x6e, 0x74, 0x69, 0x61, 0x6c, 0x2f,
  0x64, 0x65, 0x6e, 0x73, 0x65, 0x2f, 0x4d, 0x61, 0x74, 0x4d, 0x75, 0x6c,
  0x2f, 0x52, 0x65, 0x61, 0x64, 0x56, 0x61, 0x72, 0x69, 0x61, 0x62, 0x6c,
  0x65, 0x4f, 0x70, 0x3a, 0x30, 0x0a, 0x41, 0x53, 0x74, 0x61, 0x74, 0x65,
  0x66, 0x75, 0x6c, 0x50, 0x61, 0x72, 0x74, 0x69, 0x74, 0x69, 0x6f, 0x6e,
  0x65, 0x64, 0x43, 0x61, 0x6c, 0x6c, 0x2f, 0x73, 0x65, 0x71, 0x75, 0x65,
  0x6e, 0x74, 0x69, 0x61, 0x6c, 0x2f, 0x64, 0x65, 0x6e, 0x73, 0x65, 0x2f,
  0x42, 0x69, 0x61, 0x73, 0x41, 0x64, 0x64, 0x2f, 0x52, 0x65, 0x61, 0x64,
  0x56, 0x61, 0x72, 0x69, 0x61, 0x62, 0x6c, 0x65, 0x4f, 0x70, 0x3a, 0x30,
  0x12, 0x39, 0x53, 0x74, 0x61, 0x74, 0x65, 0x66, 0x75, 0x6c, 0x50, 0x61,
  0x72, 0x74, 0x69, 0x74, 0x69, 0x6f, 0x6e, 0x65, 0x64, 0x43, 0x61, 0x6c,
  0x6c, 0x2f, 0x73, 0x65, 0x71, 0x75, 0x65, 0x6e, 0x74, 0x69, 0x61, 0x6c,
  0x2f, 0x64, 0x65, 0x6e, 0x73, 0x65, 0x2f, 0x4d, 0x61, 0x74, 0x4d, 0x75,
  0x6c, 0x5f, 0x47, 0x65, 0x6d, 0x6d, 0x5f, 0x5f, 0x36, 0x3a, 0x30, 0x1a,
  0x37, 0x53, 0x74, 0x61, 0x74, 0x65, 0x66, 0x75, 0x6c, 0x50, 0x61, 0x72,
  0x74, 0x69, 0x74, 0x69, 0x6f, 0x6e, 0x65, 0x64, 0x43, 0x61, 0x6c, 0x6c,
  0x2f, 0x73, 0x65, 0x71, 0x75, 0x65, 0x6e, 0x74, 0x69, 0x61, 0x6c, 0x2f,
  0x64, 0x65, 0x6e, 0x73, 0x65, 0x2f, 0x4d, 0x61, 0x74, 0x4d, 0x75, 0x6c,
  0x5f, 0x47, 0x65, 0x6d, 0x6d, 0x5f, 0x5f, 0x36, 0x22, 0x04, 0x47, 0x65,
  0x6d, 0x6d, 0x2a, 0x0d, 0x0a, 0x06, 0x74, 0x72, 0x61, 0x6e, 0x73, 0x41,
  0x18, 0x00, 0xa0, 0x01, 0x02, 0x2a, 0x0d, 0x0a, 0x06, 0x74, 0x72, 0x61,
  0x6e, 0x73, 0x42, 0x18, 0x00, 0xa0, 0x01, 0x02, 0x3a, 0x00, 0x0a, 0xa1,
  0x01, 0x0a, 0x39, 0x53, 0x74, 0x61, 0x74, 0x65, 0x66, 0x75, 0x6c, 0x50,
  0x61, 0x72, 0x74, 0x69, 0x74, 0x69, 0x6f, 0x6e, 0x65, 0x64, 0x43, 0x61,
  0x6c, 0x6c, 0x2f, 0x73, 0x65, 0x71, 0x75, 0x65, 0x6e, 0x74, 0x69, 0x61,
  0x6c, 0x2f, 0x64, 0x65, 0x6e, 0x73, 0x65, 0x2f, 0x4d, 0x61, 0x74, 0x4d,
  0x75, 0x6c, 0x5f, 0x47, 0x65, 0x6d, 0x6d, 0x5f, 0x5f, 0x36, 0x3a, 0x30,
  0x12, 0x2f, 0x53, 0x74, 0x61, 0x74, 0x65, 0x66, 0x75, 0x6c, 0x50, 0x61,
  0x72, 0x74, 0x69, 0x74, 0x69, 0x6f, 0x6e, 0x65, 0x64, 0x43, 0x61, 0x6c,
  0x6c, 0x2f, 0x73, 0x65, 0x71, 0x75, 0x65, 0x6e, 0x74, 0x69, 0x61, 0x6c,
  0x2f, 0x64, 0x65, 0x6e, 0x73, 0x65, 0x2f, 0x52, 0x65, 0x6c, 0x75, 0x3a,
  0x30, 0x1a, 0x2d, 0x53, 0x74, 0x61, 0x74, 0x65, 0x66, 0x75, 0x6c, 0x50,
  0x61, 0x72, 0x74, 0x69, 0x74, 0x69, 0x6f, 0x6e, 0x65, 0x64, 0x43, 0x61,
  0x6c, 0x6c, 0x2f, 0x73, 0x65, 0x71, 0x75, 0x65, 0x6e, 0x74, 0x69, 0x61,
  0x6c, 0x2f, 0x64, 0x65, 0x6e, 0x73, 0x65, 0x2f, 0x52, 0x65, 0x6c, 0x75,
  0x22, 0x04, 0x52, 0x65, 0x6c, 0x75, 0x0a, 0xd8, 0x02, 0x0a, 0x2f, 0x53,
  0x74, 0x61, 0x74, 0x65, 0x66, 0x75, 0x6c, 0x50, 0x61, 0x72, 0x74, 0x69,
  0x74, 0x69, 0x6f, 0x6e, 0x65, 0x64, 0x43, 0x61, 0x6c, 0x6c, 0x2f, 0x73,
  0x65, 0x71, 0x75, 0x65, 0x6e, 0x74, 0x69, 0x61, 0x6c, 0x2f, 0x64, 0x65,
  0x6e, 0x73, 0x65, 0x2f, 0x52, 0x65, 0x6c, 0x75, 0x3a, 0x30, 0x0a, 0x42,
  0x53, 0x74, 0x61, 0x74, 0x65, 0x66, 0x75, 0x6c, 0x50, 0x61, 0x72, 0x74,
  0x69, 0x74, 0x69, 0x6f, 0x6e, 0x65, 0x64, 0x43, 0x61, 0x6c, 0x6c, 0x2f,
  0x73, 0x65, 0x71, 0x75, 0x65, 0x6e, 0x74, 0x69, 0x61, 0x6c, 0x2f, 0x64,
  0x65, 0x6e, 0x73, 0x65, 0x5f, 0x31, 0x2f, 0x4d, 0x61, 0x74, 0x4d, 0x75,
  0x6c, 0x2f, 0x52, 0x65, 0x61, 0x64, 0x56, 0x61, 0x72, 0x69, 0x61, 0x62,
  0x6c, 0x65, 0x4f, 0x70, 0x3a, 0x30, 0x0a, 0x43, 0x53, 0x74, 0x61, 0x74,
  0x65, 0x66, 0x75, 0x6c, 0x50, 0x61, 0x72, 0x74, 0x69, 0x74, 0x69, 0x6f,
  0x6e, 0x65, 0x64, 0x43, 0x61, 0x6c, 0x6c, 0x2f, 0x73, 0x65, 0x71, 0x75,
  0x65, 0x6e, 0x74, 0x69, 0x61, 0x6c, 0x2f, 0x64, 0x65, 0x6e, 0x73, 0x65,
  0x5f, 0x31, 0x2f, 0x42, 0x69, 0x61, 0x73, 0x41, 0x64, 0x64, 0x2f, 0x52,
  0x65, 0x61, 0x64, 0x56, 0x61, 0x72, 0x69, 0x61, 0x62, 0x6c, 0x65, 0x4f,
  0x70, 0x3a, 0x30, 0x12, 0x3b, 0x53, 0x74, 0x61, 0x74, 0x65, 0x66, 0x75,
  0x6c, 0x50, 0x61, 0x72, 0x74, 0x69, 0x74, 0x69, 0x6f, 0x6e, 0x65, 0x64,
  0x43, 0x61, 0x6c, 0x6c, 0x2f, 0x73, 0x65, 0x71, 0x75, 0x65, 0x6e, 0x74,
  0x69, 0x61, 0x6c, 0x2f, 0x64, 0x65, 0x6e, 0x73, 0x65, 0x5f, 0x31, 0x2f,
  0x4d, 0x61, 0x74, 0x4d, 0x75, 0x6c, 0x5f, 0x47, 0x65, 0x6d, 0x6d, 0x5f,
  0x5f, 0x37, 0x3a, 0x30, 0x1a, 0x39, 0x53, 0x74, 0x61, 0x74, 0x65, 0x66,
  0x75, 0x6c, 0x50, 0x61, 0x72, 0x74, 0x69, 0x74, 0x69, 0x6f, 0x6e, 0x65,
  0x64, 0x43, 0x61, 0x6c, 0x6c, 0x2f, 0x73, 0x65, 0x71, 0x75, 0x65, 0x6e,
  0x74, 0x69, 0x61, 0x6c, 0x2f, 0x64, 0x65, 0x6e, 0x73, 0x65, 0x5f, 0x31,
  0x2f, 0x4d, 0x61, 0x74, 0x4d, 0x75, 0x6c, 0x5f, 0x47, 0x65, 0x6d, 0x6d,
  0x5f, 0x5f, 0x37, 0x22, 0x04, 0x47, 0x65, 0x6d, 0x6d, 0x2a, 0x0d, 0x0a,
  0x06, 0x74, 0x72, 0x61, 0x6e, 0x73, 0x41, 0x18, 0x00, 0xa0, 0x01, 0x02,
  0x2a, 0x0d, 0x0a, 0x06, 0x74, 0x72, 0x61, 0x6e, 0x73, 0x42, 0x18, 0x00,
  0xa0, 0x01, 0x02, 0x3a, 0x00, 0x0a, 0xa7, 0x01, 0x0a, 0x3b, 0x53, 0x74,
  0x61, 0x74, 0x65, 0x66, 0x75, 0x6c, 0x50, 0x61, 0x72, 0x74, 0x69, 0x74,
  0x69, 0x6f, 0x6e, 0x65, 0x64, 0x43, 0x61, 0x6c, 0x6c, 0x2f, 0x73, 0x65,
  0x71, 0x75, 0x65, 0x6e, 0x74, 0x69, 0x61, 0x6c, 0x2f, 0x64, 0x65, 0x6e,
  0x73, 0x65, 0x5f, 0x31, 0x2f, 0x4d, 0x61, 0x74, 0x4d, 0x75, 0x6c, 0x5f,
  0x47, 0x65, 0x6d, 0x6d, 0x5f, 0x5f, 0x37, 0x3a, 0x30, 0x12, 0x31, 0x53,
  0x74, 0x61, 0x74, 0x65, 0x66, 0x75, 0x6c, 0x50, 0x61, 0x72, 0x74, 0x69,
  0x74, 0x69, 0x6f, 0x6e, 0x65, 0x64, 0x43, 0x61, 0x6c, 0x6c, 0x2f, 0x73,
  0x65, 0x71, 0x75, 0x65, 0x6e, 0x74, 0x69, 0x61, 0x6c, 0x2f, 0x64, 0x65,
  0x6e, 0x73, 0x65, 0x5f, 0x31, 0x2f, 0x52, 0x65, 0x6c, 0x75, 0x3a, 0x30,
  0x1a, 0x2f, 0x53, 0x74, 0x61, 0x74, 0x65, 0x66, 0x75, 0x6c, 0x50, 0x61,
  0x72, 0x74, 0x69, 0x74, 0x69, 0x6f, 0x6e, 0x65, 0x64, 0x43, 0x61, 0x6c,
  0x6c, 0x2f, 0x73, 0x65, 0x71, 0x75, 0x65, 0x6e, 0x74, 0x69, 0x61, 0x6c,
  0x2f, 0x64, 0x65, 0x6e, 0x73, 0x65, 0x5f, 0x31, 0x2f, 0x52, 0x65, 0x6c,
  0x75, 0x22, 0x04, 0x52, 0x65, 0x6c, 0x75, 0x0a, 0xd6, 0x02, 0x0a, 0x31,
  0x53, 0x74, 0x61, 0x74, 0x65, 0x66, 0x75, 0x6c, 0x50, 0x61, 0x72, 0x74,
  0x69, 0x74, 0x69, 0x6f, 0x6e, 0x65, 0x64, 0x43, 0x61, 0x6c, 0x6c, 0x2f,
  0x73, 0x65, 0x71, 0x75, 0x65, 0x6e, 0x74, 0x69, 0x61, 0x6c, 0x2f, 0x64,
  0x65, 0x6e, 0x73, 0x65, 0x5f, 0x31, 0x2f, 0x52, 0x65, 0x6c, 0x75, 0x3a,
  0x30, 0x0a, 0x41, 0x53, 0x74, 0x61, 0x74, 0x65, 0x66, 0x75, 0x6c, 0x50,
  0x61, 0x72, 0x74, 0x69, 0x74, 0x69, 0x6f, 0x6e, 0x65, 0x64, 0x43, 0x61,
  0x6c, 0x6c, 0x2f, 0x73, 0x65, 0x71, 0x75, 0x65, 0x6e, 0x74, 0x69, 0x61,
  0x6c, 0x2f, 0x79, 0x5f, 0x70, 0x72, 0x65, 0x64, 0x2f, 0x4d, 0x61, 0x74,
  0x4d, 0x75, 0x6c, 0x2f, 0x52, 0x65, 0x61, 0x64, 0x56, 0x61, 0x72, 0x69,
  0x61, 0x62, 0x6c, 0x65, 0x4f, 0x70, 0x3a, 0x30, 0x0a, 0x42, 0x53, 0x74,
  0x61, 0x74, 0x65, 0x66, 0x75, 0x6c, 0x50, 0x61, 0x72, 0x74, 0x69, 0x74,
  0x69, 0x6f, 0x6e, 0x65, 0x64, 0x43, 0x61, 0x6c, 0x6c, 0x2f, 0x73, 0x65,
  0x71, 0x75, 0x65, 0x6e, 0x74, 0x69, 0x61, 0x6c, 0x2f, 0x79, 0x5f, 0x70,
  0x72, 0x65, 0x64, 0x2f, 0x42, 0x69, 0x61, 0x73, 0x41, 0x64, 0x64, 0x2f,
  0x52, 0x65, 0x61, 0x64, 0x56, 0x61, 0x72, 0x69, 0x61, 0x62, 0x6c, 0x65,
  0x4f, 0x70, 0x3a, 0x30, 0x12, 0x3a, 0x53, 0x74, 0x61, 0x74, 0x65, 0x66,
  0x75, 0x6c, 0x50, 0x61, 0x72, 0x74, 0x69, 0x74, 0x69, 0x6f, 0x6e, 0x65,
  0x64, 0x43, 0x61, 0x6c, 0x6c, 0x2f, 0x73, 0x65, 0x71, 0x75, 0x65, 0x6e,
  0x74, 0x69, 0x61, 0x6c, 0x2f, 0x79, 0x5f, 0x70, 0x72, 0x65, 0x64, 0x2f,
  0x4d, 0x61, 0x74, 0x4d, 0x75, 0x6c, 0x5f, 0x47, 0x65, 0x6d, 0x6d, 0x5f,
  0x5f, 0x38, 0x3a, 0x30, 0x1a, 0x38, 0x53, 0x74, 0x61, 0x74, 0x65, 0x66,
  0x75, 0x6c, 0x50, 0x61, 0x72, 0x74, 0x69, 0x74, 0x69, 0x6f, 0x6e, 0x65,
  0x64, 0x43, 0x61, 0x6c, 0x6c, 0x2f, 0x73, 0x65, 0x71, 0x75, 0x65, 0x6e,
  0x74, 0x69, 0x61, 0x6c, 0x2f, 0x79, 0x5f, 0x70, 0x72, 0x65, 0x64, 0x2f,
  0x4d, 0x61, 0x74, 0x4d, 0x75, 0x6c, 0x5f, 0x47, 0x65, 0x6d, 0x6d, 0x5f,
  0x5f, 0x38, 0x22, 0x04, 0x47, 0x65, 0x6d, 0x6d, 0x2a, 0x0d, 0x0a, 0x06,
  0x74, 0x72, 0x61, 0x6e, 0x73, 0x41, 0x18, 0x00, 0xa0, 0x01, 0x02, 0x2a,
  0x0d, 0x0a, 0x06, 0x74, 0x72, 0x61, 0x6e, 0x73, 0x42, 0x18, 0x00, 0xa0,
  0x01, 0x02, 0x3a, 0x00, 0x0a, 0x8f, 0x01, 0x0a, 0x3a, 0x53, 0x74, 0x61,
  0x74, 0x65, 0x66, 0x75, 0x6c, 0x50, 0x61, 0x72, 0x74, 0x69, 0x74, 0x69,
  0x6f, 0x6e, 0x65, 0x64, 0x43, 0x61, 0x6c, 0x6c, 0x2f, 0x73, 0x65, 0x71,
  0x75, 0x65, 0x6e, 0x74, 0x69, 0x61, 0x6c, 0x2f, 0x79, 0x5f, 0x70, 0x72,
  0x65, 0x64, 0x2f, 0x4d, 0x61, 0x74, 0x4d, 0x75, 0x6c, 0x5f, 0x47, 0x65,
  0x6d, 0x6d, 0x5f, 0x5f, 0x38, 0x3a, 0x30, 0x12, 0x08, 0x6f, 0x75, 0x74,
  0x70, 0x75, 0x74, 0x5f, 0x30, 0x1a, 0x31, 0x53, 0x74, 0x61, 0x74, 0x65,
  0x66, 0x75, 0x6c, 0x50, 0x61, 0x72, 0x74, 0x69, 0x74, 0x69, 0x6f, 0x6e,
  0x65, 0x64, 0x43, 0x61, 0x6c, 0x6c, 0x2f, 0x73, 0x65, 0x71, 0x75, 0x65,
  0x6e, 0x74, 0x69, 0x61, 0x6c, 0x2f, 0x79, 0x5f, 0x70, 0x72, 0x65, 0x64,
  0x2f, 0x53, 0x6f, 0x66, 0x74, 0x6d, 0x61, 0x78, 0x22, 0x07, 0x53, 0x6f,
  0x66, 0x74, 0x6d, 0x61, 0x78, 0x2a, 0x0b, 0x0a, 0x04, 0x61, 0x78, 0x69,
  0x73, 0x18, 0x01, 0xa0, 0x01, 0x02, 0x12, 0x07, 0x74, 0x66, 0x32, 0x6f,
  0x6e, 0x6e, 0x78, 0x2a, 0xec, 0x01, 0x08, 0x0a, 0x08, 0x04, 0x10, 0x01,
  0x42, 0x41, 0x53, 0x74, 0x61, 0x74, 0x65, 0x66, 0x75, 0x6c, 0x50, 0x61,
  0x72, 0x74, 0x69, 0x74, 0x69, 0x6f, 0x6e, 0x65, 0x64, 0x43, 0x61, 0x6c,
  0x6c, 0x2f, 0x73, 0x65, 0x71, 0x75, 0x65, 0x6e, 0x74, 0x69, 0x61, 0x6c,
  0x2f, 0x79, 0x5f, 0x70, 0x72, 0x65, 0x64, 0x2f, 0x4d, 0x61, 0x74, 0x4d,
  0x75, 0x6c, 0x2f, 0x52, 0x65, 0x61, 0x64, 0x56, 0x61, 0x72, 0x69, 0x61,
  0x62, 0x6c, 0x65, 0x4f, 0x70, 0x3a, 0x30, 0x4a, 0xa0, 0x01, 0xb8, 0x9b,
  0x0e, 0x3e, 0x0f, 0x0b, 0x0a, 0x3f, 0xfa, 0xe6, 0x14, 0xbf, 0x51, 0x99,
  0x55, 0x3d, 0x43, 0x59, 0x4d, 0x3f, 0x34, 0x60, 0xfe, 0xbe, 0x18, 0x67,
  0xde, 0x3e, 0xbc, 0x97, 0x91, 0xbe, 0x71, 0x89, 0x1e, 0x3f, 0x9c, 0x26,
  0x5d, 0xbf, 0xe9, 0xcf, 0x1b, 0xbf, 0x33, 0x04, 0x2a, 0x3e, 0xc4, 0xf2,
  0xcf, 0xbe, 0x9c, 0x55, 0x3c, 0xbf, 0x10, 0x6c, 0x0d, 0xbf, 0x7f, 0x73,
  0xcb, 0x3e, 0x09, 0xcc, 0x1c, 0xbe, 0x68, 0x96, 0x0f, 0xbf, 0x22, 0x0c,
  0xf7, 0x3e, 0xd3, 0xdf, 0x83, 0x3e, 0x98, 0xbd, 0x3a, 0xbf, 0x95, 0x41,
  0x42, 0xbf, 0x4e, 0xc0, 0x34, 0xbf, 0x69, 0xc7, 0x7a, 0xbd, 0x05, 0x40,
  0x64, 0xbf, 0x19, 0x09, 0x42, 0x3e, 0x56, 0x58, 0x1c, 0x3f, 0x27, 0x1d,
  0xd4, 0x3e, 0x0d, 0x10, 0x7c, 0xbe, 0xdc, 0x5b, 0x34, 0x3e, 0xb2, 0x91,
  0xc0, 0x3e, 0x61, 0x98, 0x61, 0xbe, 0x94, 0x93, 0x65, 0x3f, 0xc3, 0x7f,
  0xf3, 0xbe, 0x8e, 0xd9, 0x6f, 0x3e, 0x63, 0xf9, 0x0d, 0xbf, 0x9e, 0x0f,
  0xad, 0x3e, 0x8d, 0xa3, 0x71, 0x3e, 0x37, 0xe5, 0xe3, 0xbe, 0x4b, 0x0c,
  0x5f, 0xbf, 0x2a, 0x5a, 0x08, 0x04, 0x10, 0x01, 0x42, 0x42, 0x53, 0x74,
  0x61, 0x74, 0x65, 0x66, 0x75, 0x6c, 0x50, 0x61, 0x72, 0x74, 0x69, 0x74,
  0x69, 0x6f, 0x6e, 0x65, 0x64, 0x43, 0x61, 0x6c, 0x6c, 0x2f, 0x73, 0x65,
  0x71, 0x75, 0x65, 0x6e, 0x74, 0x69, 0x61, 0x6c, 0x2f, 0x79, 0x5f, 0x70,
  0x72, 0x65, 0x64, 0x2f, 0x42, 0x69, 0x61, 0x73, 0x41, 0x64, 0x64, 0x2f,
  0x52, 0x65, 0x61, 0x64, 0x56, 0x61, 0x72, 0x69, 0x61, 0x62, 0x6c, 0x65,
  0x4f, 0x70, 0x3a, 0x30, 0x4a, 0x10, 0x22, 0xc4, 0xdf, 0xbd, 0x5b, 0x1f,
  0x6f, 0x3d, 0x3c, 0x27, 0xd9, 0xbd, 0x8d, 0x1a, 0xbb, 0x3d, 0x2a, 0xed,
  0x06, 0x08, 0x14, 0x08, 0x0a, 0x10, 0x01, 0x42, 0x42, 0x53, 0x74, 0x61,
  0x74, 0x65, 0x66, 0x75, 0x6c, 0x50, 0x61, 0x72, 0x74, 0x69, 0x74, 0x69,
  0x6f, 0x6e, 0x65, 0x64, 0x43, 0x61, 0x6c, 0x6c, 0x2f, 0x73, 0x65, 0x71,
  0x75, 0x65, 0x6e, 0x74, 0x69, 0x61, 0x6c, 0x2f, 0x64, 0x65, 0x6e, 0x73,
  0x65, 0x5f, 0x31, 0x2f, 0x4d, 0x61, 0x74, 0x4d, 0x75, 0x6c, 0x2f, 0x52,
  0x65, 0x61, 0x64, 0x56, 0x61, 0x72, 0x69, 0x61, 0x62, 0x6c, 0x65, 0x4f,
  0x70, 0x3a, 0x30, 0x4a, 0xa0, 0x06, 0x95, 0x3f, 0x70, 0x3e, 0xd7, 0xdf,
  0xb0, 0xbe, 0x94, 0x6d, 0xca, 0xbd, 0xcf, 0xe9, 0x9d, 0x3e, 0xb4, 0x14,
  0x02, 0xbe, 0x3d, 0xa2, 0x90, 0xbc, 0xab, 0xba, 0x12, 0x3f, 0xeb, 0x6a,
  0x83, 0xbb, 0xb0, 0x92, 0x7e, 0x3d, 0x38, 0x25, 0xe6, 0x3c, 0xcd, 0xb4,
  0x2c, 0xbd, 0x19, 0x3c, 0x35, 0xbf, 0xd7, 0xbc, 0x09, 0xbf, 0x8b, 0xce,
  0x1c, 0x3e, 0x84, 0x60, 0x7d, 0x3e, 0x3f, 0x0f, 0xcd, 0x3e, 0x79, 0xb4,
  0xa1, 0x3e, 0xd1, 0x3b, 0xc0, 0x3e, 0x34, 0x05, 0xa3, 0xbd, 0xc1, 0x57,
  0x83, 0xbe, 0x9f, 0xd8, 0x35, 0xbe, 0x4c, 0xe9, 0xbd, 0x3e, 0xce, 0x6a,
  0x54, 0x3e, 0xe8, 0x90, 0xf3, 0x3e, 0x7c, 0xb3, 0xa0, 0xbe, 0x11, 0xc3,
  0xa7, 0xbd, 0xe6, 0xad, 0x99, 0xbe, 0xef, 0x06, 0xd3, 0x3d, 0x46, 0xe0,
  0x83, 0x3e, 0x52, 0x96, 0x9e, 0xbd, 0xdf, 0xbc, 0x0f, 0x3e, 0x3f, 0x2a,
  0xf4, 0x3e, 0x82, 0xb4, 0x14, 0x3f, 0x61, 0xda, 0x44, 0x3e, 0x36, 0x3a,
  0xa1, 0xbb, 0x2c, 0x37, 0xba, 0x3e, 0xfa, 0x61, 0xaf, 0xbe, 0x1a, 0xb4,
  0x12, 0x3e, 0x9a, 0xfb, 0x8f, 0x3e, 0xfe, 0xd3, 0xe8, 0xbc, 0x2c, 0xba,
  0xe4, 0x3e, 0xea, 0xe5, 0xaa, 0x3e, 0x08, 0xa4, 0xce, 0x3c, 0x94, 0x90,
  0xab, 0xbe, 0x7b, 0x95, 0xa1, 0xbe, 0x89, 0xf8, 0x8d, 0xbe, 0x0d, 0xac,
  0x7d, 0x3e, 0xfd, 0x91, 0x20, 0x3c, 0x04, 0x0b, 0xd9, 0x3e, 0x59, 0x1b,
  0xfc, 0x3e, 0x8c, 0xda, 0x8e, 0x3d, 0xe4, 0x26, 0xb9, 0xbd, 0xfa, 0xec,
  0x07, 0xbe, 0xb3, 0x93, 0x60, 0x3e, 0xf9, 0x9a, 0x93, 0x3e, 0xa4, 0x3d,
  0x4b, 0xbf, 0xf8, 0x1a, 0xa2, 0x3e, 0x79, 0xd8, 0xc9, 0x3e, 0x19, 0xba,
  0x51, 0x3e, 0x05, 0x99, 0x0d, 0x3f, 0x2d, 0x97, 0x10, 0x3f, 0xf3, 0x22,
  0xa5, 0xbe, 0x16, 0x24, 0x34, 0xbe, 0x5e, 0x3e, 0x70, 0xbe, 0x14, 0x09,
  0x01, 0xbe, 0x60, 0xf0, 0xbf, 0x3d, 0xa2, 0x58, 0x2e, 0x3e, 0x26, 0x3e,
  0xca, 0x3e, 0x8e, 0xf1, 0x13, 0xbf, 0x30, 0x7e, 0x99, 0xbd, 0xe6, 0x0b,
  0x91, 0xbe, 0xb4, 0x92, 0x71, 0xbe, 0x3a, 0xd4, 0x6b, 0x3e, 0x45, 0x06,
  0xa6, 0xbc, 0x29, 0x0e, 0x6e, 0x3e, 0xc6, 0xa2, 0xf1, 0x3e, 0x11, 0x10,
  0x26, 0xbe, 0x89, 0x58, 0xfc, 0xbe, 0x1f, 0x2e, 0x58, 0x3c, 0x19, 0x94,
  0x9e, 0xbb, 0x6c, 0xb3, 0x10, 0x3d, 0xb4, 0x6b, 0x59, 0xbe, 0x8c, 0x19,
  0xeb, 0xbc, 0x86, 0x7a, 0xb8, 0xbd, 0x56, 0x1d, 0x9c, 0xbe, 0xd1, 0xbb,
  0xd2, 0xbe, 0x96, 0xb7, 0x37, 0xbe, 0xc2, 0x6c, 0xce, 0x3e, 0xa1, 0xff,
  0x18, 0xbd, 0x73, 0xcc, 0x8f, 0x3e, 0x78, 0x1a, 0x64, 0xbe, 0x19, 0xde,
  0x9a, 0x3d, 0x5d, 0x4a, 0xc9, 0x3d, 0x37, 0xf9, 0x82, 0x3e, 0x9b, 0x46,
  0x93, 0x3e, 0x20, 0xd0, 0xbf, 0xbd, 0xfe, 0x42, 0x9f, 0x3d, 0x13, 0x31,
  0x97, 0xbd, 0x10, 0xe5, 0xb8, 0xb9, 0xb7, 0x1d, 0xb2, 0xbe, 0xce, 0x6a,
  0x87, 0x3d, 0x92, 0x8c, 0xa4, 0xbc, 0xb5, 0x1b, 0x69, 0x3e, 0x4c, 0x81,
  0x03, 0x3f, 0xc3, 0x93, 0xd6, 0x3e, 0x6e, 0x2b, 0x1c, 0x3f, 0x5b, 0x9a,
  0xb3, 0x3e, 0x70, 0xb2, 0x86, 0xbe, 0xf8, 0x2e, 0x85, 0x3e, 0x48, 0x5c,
  0xc1, 0xbe, 0x0b, 0x9e, 0x8f, 0x3e, 0x4e, 0x40, 0xfe, 0xbd, 0x01, 0x53,
  0x9d, 0x3e, 0x20, 0x58, 0x9c, 0x3e, 0x68, 0xd1, 0xb1, 0x3e, 0xdd, 0x77,
  0xb1, 0x3e, 0x05, 0x37, 0x51, 0x3e, 0xc8, 0xd1, 0xc5, 0x3e, 0xe3, 0x36,
  0xc7, 0x3c, 0xa5, 0x2c, 0x30, 0x3e, 0x56, 0x90, 0x5f, 0x3e, 0xc3, 0x8c,
  0x66, 0x3e, 0xed, 0x4f, 0x93, 0xbd, 0x8f, 0x2f, 0x97, 0xbe, 0x12, 0xa0,
  0x24, 0xbd, 0x5f, 0x1b, 0xfd, 0xbd, 0xc0, 0x30, 0x6c, 0xbe, 0x87, 0xd6,
  0x8c, 0x3e, 0xf1, 0x04, 0x7b, 0xbd, 0xc3, 0x5d, 0xa5, 0xbe, 0xc8, 0x9d,
  0xcb, 0x3e, 0x89, 0x30, 0x1c, 0xbe, 0x15, 0x7e, 0x75, 0xbe, 0x4e, 0x85,
  0xb6, 0xbe, 0x10, 0x8d, 0x6a, 0x3e, 0xb3, 0xe7, 0x27, 0x3f, 0x9f, 0xe7,
  0x7d, 0xbd, 0xc1, 0xc0, 0xa2, 0xbd, 0xdd, 0x62, 0xdd, 0xbe, 0x87, 0x9d,
  0xcd, 0xbe, 0x19, 0x06, 0xc8, 0x3e, 0xd1, 0x28, 0x90, 0x3e, 0xa7, 0xfa,
  0x9e, 0x3c, 0x21, 0x5e, 0x94, 0xbd, 0xd3, 0xfb, 0x91, 0x3d, 0xd3, 0xf8,
  0xfe, 0x3c, 0x44, 0x0f, 0x0e, 0x3d, 0x3f, 0x4f, 0xa6, 0xbe, 0x2d, 0x3b,
  0xc4, 0xbd, 0x1f, 0x80, 0x87, 0x3e, 0x98, 0x0b, 0xb2, 0xbe, 0xc3, 0x13,
  0xab, 0x3e, 0x17, 0x7e, 0x5e, 0xbe, 0x2e, 0x5a, 0x40, 0xbe, 0x11, 0x85,
  0x19, 0xbe, 0x27, 0xe5, 0x42, 0xbe, 0xdc, 0x15, 0x39, 0x3d, 0xc0, 0x9d,
  0x72, 0x3e, 0x44, 0x7d, 0xa8, 0x3e, 0x70, 0xad, 0xdd, 0xbd, 0x9d, 0x07,
  0x02, 0xbd, 0xc8, 0x70, 0x39, 0xbd, 0x06, 0x7b, 0x07, 0x3f, 0xe3, 0xa3,
  0x00, 0xbe, 0xf0, 0xa0, 0x15, 0xbe, 0x88, 0x0c, 0xf1, 0x3d, 0x96, 0x7f,
  0x87, 0x3e, 0xef, 0x1f, 0xbb, 0x3e, 0x1b, 0x7f, 0x14, 0xbe, 0xe6, 0x02,
  0x0b, 0xbe, 0xc9, 0x4f, 0x09, 0x3e, 0x50, 0x05, 0x3c, 0x3e, 0x1d, 0xb5,
  0xb7, 0xbe, 0xd2, 0xa8, 0x99, 0xbe, 0x24, 0xdf, 0xb7, 0x3e, 0x29, 0x62,
  0x7a, 0x3e, 0xd5, 0x94, 0xa3, 0xbd, 0x0b, 0x38, 0x44, 0x3d, 0xd1, 0x2d,
  0x93, 0x3e, 0x21, 0x18, 0xbf, 0x3e, 0x3e, 0xcc, 0x96, 0xbe, 0x82, 0x99,
  0x71, 0x3e, 0x3d, 0x40, 0xc6, 0xbe, 0x22, 0x1b, 0xb9, 0x3e, 0xc4, 0x19,
  0x9f, 0x3e, 0xa8, 0xbe, 0x37, 0xbf, 0xbf, 0xbf, 0xe9, 0xbc, 0x13, 0x2c,
  0xbf, 0x3d, 0xdc, 0xa5, 0xd6, 0x3d, 0x3e, 0xc1, 0xf6, 0x3b, 0x5d, 0x7b,
  0x7b, 0xbe, 0xb2, 0xfe, 0xf8, 0xbd, 0x86, 0x26, 0x50, 0xbe, 0x0e, 0x26,
  0xaf, 0x3e, 0xcf, 0x02, 0x53, 0x3f, 0x46, 0xe9, 0xfc, 0x3e, 0x97, 0xb7,
  0xd9, 0x3e, 0x63, 0xc9, 0xbf, 0x3e, 0xb8, 0x46, 0x9f, 0xbd, 0x8e, 0xf3,
  0xae, 0x3b, 0x2a, 0x73, 0x08, 0x0a, 0x10, 0x01, 0x42, 0x43, 0x53, 0x74,
  0x61, 0x74, 0x65, 0x66, 0x75, 0x6c, 0x50, 0x61, 0x72, 0x74, 0x69, 0x74,
  0x69, 0x6f, 0x6e, 0x65, 0x64, 0x43, 0x61, 0x6c, 0x6c, 0x2f, 0x73, 0x65,
  0x71, 0x75, 0x65, 0x6e, 0x74, 0x69, 0x61, 0x6c, 0x2f, 0x64, 0x65, 0x6e,
  0x73, 0x65, 0x5f, 0x31, 0x2f, 0x42, 0x69, 0x61, 0x73, 0x41, 0x64, 0x64,
  0x2f, 0x52, 0x65, 0x61, 0x64, 0x56, 0x61, 0x72, 0x69, 0x61, 0x62, 0x6c,
  0x65, 0x4f, 0x70, 0x3a, 0x30, 0x4a, 0x28, 0xc1, 0xa9, 0xcc, 0x3d, 0x4c,
  0x2b, 0xa3, 0x3d, 0x2c, 0xde, 0x11, 0x3e, 0xf9, 0x63, 0x61, 0x3d, 0x2e,
  0x7d, 0xb2, 0x3c, 0x12, 0xc0, 0x0a, 0x3e, 0x8a, 0x82, 0x53, 0xbd, 0xc3,
  0x81, 0xd5, 0xbc, 0xb7, 0x7f, 0x48, 0x3d, 0x1b, 0xc4, 0x02, 0x3d, 0x2a,
  0xfb, 0x18, 0x08, 0x27, 0x08, 0x14, 0x10, 0x01, 0x42, 0x40, 0x53, 0x74,
  0x61, 0x74, 0x65, 0x66, 0x75, 0x6c, 0x50, 0x61, 0x72, 0x74, 0x69, 0x74,
  0x69, 0x6f, 0x6e, 0x65, 0x64, 0x43, 0x61, 0x6c, 0x6c, 0x2f, 0x73, 0x65,
  0x71, 0x75, 0x65, 0x6e, 0x74, 0x69, 0x61, 0x6c, 0x2f, 0x64, 0x65, 0x6e,
  0x73, 0x65, 0x2f, 0x4d, 0x61, 0x74, 0x4d, 0x75, 0x6c, 0x2f, 0x52, 0x65,
  0x61, 0x64, 0x56, 0x61, 0x72, 0x69, 0x61, 0x62, 0x6c, 0x65, 0x4f, 0x70,
  0x3a, 0x30, 0x4a, 0xb0, 0x18, 0x67, 0x65, 0xee, 0x3d, 0x18, 0xba, 0x81,
  0xbe, 0x82, 0x69, 0x54, 0x3e, 0x78, 0xd0, 0xa4, 0xbd, 0xe3, 0x96, 0x5c,
  0x3e, 0xda, 0x22, 0x3a, 0xbe, 0x5d, 0x0f, 0xf0, 0x3d, 0xa1, 0x73, 0xb3,
  0x3e, 0x70, 0x6a, 0x07, 0x3e, 0x50, 0x7e, 0x89, 0xbe, 0x22, 0xda, 0x03,
  0x3f, 0x09, 0xac, 0xaa, 0x3c, 0x53, 0x0f, 0x44, 0xbe, 0xd7, 0x13, 0x81,
  0x3e, 0x04, 0x04, 0x9c, 0x3e, 0x7c, 0xea, 0x48, 0xbd, 0x5f, 0xc1, 0x5b,
  0x3d, 0xec, 0x80, 0xb1, 0xbd, 0xce, 0x7e, 0x93, 0xbe, 0x34, 0x3f, 0x22,
  0x3e, 0x65, 0x15, 0x01, 0x3e, 0xb2, 0x97, 0xc6, 0x3d, 0x98, 0xe9, 0x8d,
  0xbe, 0xd9, 0x2f, 0x04, 0xbe, 0x18, 0x5e, 0xba, 0x3d, 0x0e, 0x80, 0xac,
  0x3e, 0xc3, 0x3f, 0x32, 0x3e, 0x02, 0x7b, 0xf9, 0xbe, 0x5d, 0x00, 0xbc,
  0x3e, 0x46, 0x6d, 0x83, 0x3d, 0x2e, 0x82, 0x3d, 0xbd, 0xa2, 0xf1, 0x04,
  0x3d, 0xed, 0x80, 0x81, 0xbe, 0xf5, 0x16, 0xaa, 0xbe, 0xcc, 0x4c, 0x8f,
  0xbe, 0x3d, 0xfa, 0xa2, 0x3e, 0xed, 0x34, 0x70, 0xbe, 0x53, 0x36, 0x33,
  0x3e, 0xee, 0x04, 0xe1, 0xbd, 0xb8, 0xe4, 0x96, 0x3e, 0x90, 0x61, 0x88,
  0xbe, 0x48, 0xcd, 0xea, 0x3d, 0x6c, 0xd3, 0xe4, 0xbd, 0xb5, 0xbf, 0x3f,
  0x3d, 0x1e, 0xd6, 0xf5, 0x3d, 0xd4, 0xc8, 0x3b, 0x3e, 0xaf, 0x58, 0xa0,
  0xbe, 0xb0, 0x9c, 0x1a, 0x3e, 0xe1, 0xe0, 0x0c, 0x3e, 0x35, 0x6c, 0x4c,
  0xbe, 0x67, 0x68, 0x9a, 0x3e, 0xfc, 0x99, 0xa9, 0x3e, 0xcd, 0xa6, 0x4b,
  0xbd, 0x1e, 0x52, 0xcb, 0xbe, 0x9e, 0xfa, 0x9b, 0xbb, 0x42, 0xdc, 0x8e,
  0xbe, 0xd1, 0x13, 0x10, 0xbe, 0xb3, 0x79, 0xb2, 0x3e, 0x2a, 0x52, 0x42,
  0x3e, 0xd7, 0x77, 0x8c, 0xbe, 0x80, 0x6c, 0xa1, 0x3e, 0x11, 0xe6, 0x8f,
  0x3c, 0xe0, 0x77, 0x68, 0xbe, 0x8e, 0xf9, 0xb3, 0x3e, 0x02, 0x6f, 0x20,
  0xbe, 0x4e, 0xb6, 0x03, 0xbd, 0x17, 0x09, 0x25, 0xbe, 0x1e, 0x04, 0xb8,
  0x3e, 0x9a, 0x48, 0x8e, 0xbd, 0xc0, 0x52, 0x1f, 0xbd, 0x74, 0x74, 0x49,
  0xbe, 0x2b, 0x0a, 0x3a, 0xbd, 0x11, 0x8d, 0x0c, 0xbe, 0x24, 0xf9, 0x9a,
  0x3d, 0x8f, 0xcb, 0xc9, 0x3d, 0x92, 0x40, 0xac, 0xbe, 0x8d, 0x8c, 0xcd,
  0x3c, 0x20, 0xd5, 0x6b, 0x3e, 0x60, 0x7b, 0x97, 0xbe, 0xf9, 0x58, 0xcb,
  0x3c, 0x12, 0x26, 0x86, 0x3e, 0x14, 0xfe, 0x04, 0x3d, 0x53, 0xb2, 0x33,
  0xbc, 0x21, 0x34, 0xbb, 0xbd, 0x29, 0xf1, 0xd6, 0xbe, 0x55, 0xf3, 0x8d,
  0xbe, 0x30, 0x33, 0xec, 0xbb, 0x80, 0x22, 0xd5, 0x3e, 0x6f, 0x93, 0x89,
  0xbe, 0x73, 0x6e, 0x3c, 0xbe, 0x3e, 0x0c, 0x25, 0xbe, 0xf8, 0x4e, 0x80,
  0xbe, 0x3e, 0x43, 0x3c, 0x3e, 0xf6, 0x97, 0xe9, 0x3e, 0x15, 0x22, 0x38,
  0xbe, 0x11, 0x7a, 0x7d, 0xbe, 0xc8, 0xd9, 0xcc, 0x3e, 0x42, 0xa9, 0x5e,
  0x3e, 0x16, 0x97, 0x20, 0x3e, 0xbd, 0xf3, 0x57, 0x3e, 0x26, 0xc5, 0x5b,
  0x3e, 0x08, 0x77, 0xb6, 0x3d, 0x90, 0x48, 0xf1, 0xbd, 0xec, 0x91, 0xb1,
  0x3e, 0x6c, 0x3a, 0x4f, 0xbe, 0x19, 0x1f, 0x96, 0xbe, 0x62, 0x6d, 0x9b,
  0xbe, 0xf1, 0x22, 0x33, 0x3e, 0xd7, 0xa9, 0x22, 0x3e, 0x79, 0xef, 0x30,
  0x3e, 0x05, 0x11, 0x03, 0x3b, 0x75, 0xdd, 0x60, 0xbe, 0x3b, 0x78, 0x9c,
  0xbe, 0xc1, 0xec, 0xa9, 0x3e, 0x03, 0x69, 0x0e, 0xbe, 0x9e, 0x5c, 0xcb,
  0x3c, 0x8f, 0xd1, 0xd4, 0xbd, 0xe0, 0x49, 0xcb, 0xbd, 0x84, 0x53, 0x0e,
  0x3c, 0x0c, 0x9e, 0xe9, 0xbb, 0x84, 0x43, 0x03, 0x3e, 0x03, 0x39, 0x80,
  0x3d, 0xee, 0x3c, 0x92, 0x3e, 0x44, 0x48, 0x1b, 0x3e, 0x35, 0xa8, 0xaa,
  0x3e, 0x62, 0x05, 0xe9, 0x3c, 0x3c, 0x21, 0x0e, 0xbe, 0x0e, 0xd3, 0x19,
  0x3e, 0x27, 0xbd, 0x8d, 0xbd, 0xa7, 0x32, 0x98, 0xbe, 0x27, 0x8d, 0x8a,
  0x3e, 0x2e, 0xf7, 0xbc, 0x3e, 0xe8, 0x8d, 0x60, 0xbe, 0xfd, 0xca, 0x87,
  0xbe, 0xe7, 0xa8, 0xa4, 0xbd, 0x01, 0xa3, 0xd1, 0xbd, 0xce, 0x25, 0x14,
  0xbe, 0x52, 0x29, 0xd5, 0xbd, 0x69, 0xd5, 0x64, 0xbe, 0xc8, 0xe5, 0xb6,
  0x3d, 0x4c, 0x87, 0x27, 0xbe, 0xb4, 0xe0, 0x31, 0x3e, 0x9a, 0xc0, 0x99,
  0x3e, 0xee, 0xc2, 0xd0, 0x3e, 0x6b, 0x89, 0x29, 0xbd, 0xbd, 0x43, 0x9c,
  0x3e, 0x8e, 0x3d, 0x6b, 0x3e, 0xea, 0x00, 0x3f, 0x3e, 0xcc, 0xd3, 0x69,
  0xbe, 0x11, 0x33, 0x59, 0xbc, 0xff, 0xf4, 0x07, 0x3e, 0xa3, 0xb0, 0x92,
  0xbd, 0x97, 0x42, 0xa9, 0xbe, 0x20, 0x18, 0x93, 0x3e, 0x16, 0xbe, 0x15,
  0x3e, 0x35, 0x0a, 0x6f, 0xbc, 0xc5, 0xde, 0x8a, 0xbe, 0x90, 0x23, 0x8b,
  0x3e, 0xde, 0x7d, 0x3d, 0xbd, 0x34, 0x49, 0xce, 0xbd, 0x60, 0xf5, 0x0a,
  0x3e, 0xd3, 0x8c, 0x6a, 0x3e, 0x7c, 0xa3, 0xa9, 0x3e, 0xc4, 0x7a, 0x06,
  0x3e, 0x5b, 0xb8, 0x1b, 0xbe, 0x44, 0x42, 0x21, 0xbe, 0x5b, 0x54, 0xc0,
  0xbd, 0x46, 0xd2, 0xc4, 0xbc, 0xe9, 0x15, 0xab, 0xbd, 0x99, 0xef, 0x33,
  0xbe, 0x2f, 0xfe, 0x46, 0x3d, 0xd2, 0x5d, 0x92, 0x3e, 0x08, 0x04, 0x8c,
  0xbe, 0x06, 0x34, 0x17, 0xbd, 0x9f, 0xc0, 0x2c, 0x3e, 0x08, 0xe4, 0x14,
  0x3d, 0xf1, 0xbc, 0x98, 0x3d, 0x1c, 0x05, 0xc3, 0x3d, 0x20, 0xff, 0xd1,
  0xbc, 0x66, 0x02, 0x33, 0x3e, 0x7b, 0x15, 0x63, 0xbe, 0xc0, 0x92, 0xdc,
  0x3e, 0xa3, 0x55, 0xf9, 0xbb, 0xa5, 0x39, 0xbc, 0xbe, 0x1d, 0x58, 0x07,
  0x3e, 0x52, 0x3b, 0x40, 0xbb, 0xee, 0xe9, 0x33, 0x3d, 0xd5, 0xcb, 0xcf,
  0x3e, 0xf2, 0x0e, 0x12, 0xbe, 0xcb, 0x4e, 0xa1, 0xbe, 0x10, 0x92, 0x4d,
  0x3e, 0xac, 0x41, 0x96, 0x3b, 0xc7, 0x0a, 0x08, 0x3e, 0x68, 0x08, 0xa3,
  0x3d, 0x91, 0x3d, 0xd0, 0x3d, 0x67, 0x11, 0x95, 0x3c, 0xcf, 0x01, 0x9c,
  0xbe, 0x97, 0x9d, 0xc8, 0xbd, 0x2a, 0xc3, 0x03, 0xbe, 0x0b, 0x13, 0xf9,
  0x3d, 0xb0, 0xd8, 0x22, 0x3d, 0xf5, 0x88, 0x54, 0xbd, 0x88, 0x78, 0x9d,
  0xbe, 0x8d, 0x79, 0xbf, 0xbb, 0x4f, 0x83, 0x0b, 0xbe, 0x30, 0xdb, 0xa8,
  0xbe, 0x9d, 0xe4, 0x72, 0x3d, 0xa8, 0xc0, 0x40, 0xbd, 0x45, 0xc8, 0x6a,
  0xbd, 0xe0, 0x92, 0x88, 0xbe, 0xd4, 0x90, 0x31, 0xbe, 0x85, 0xfe, 0x97,
  0x3e, 0xb3, 0x5a, 0xac, 0xbd, 0xd9, 0x64, 0x78, 0x3d, 0x43, 0x42, 0x99,
  0x3e, 0xbb, 0x3c, 0xd7, 0xbd, 0xfc, 0xdf, 0x9f, 0xbe, 0xe6, 0x54, 0x18,
  0xbe, 0x78, 0x64, 0x9e, 0xbe, 0x6d, 0xce, 0xbd, 0xbe, 0x32, 0x5d, 0x13,
  0x3e, 0xc4, 0x1e, 0x64, 0x3e, 0xe5, 0x77, 0xf0, 0x3c, 0xaf, 0x2b, 0x22,
  0x3d, 0x07, 0x0e, 0xb5, 0x3c, 0x69, 0xac, 0x24, 0xbe, 0xcd, 0x05, 0x4f,
  0x3c, 0xa1, 0x59, 0xa4, 0x3e, 0x33, 0x60, 0xc4, 0x3d, 0xb2, 0xea, 0x5c,
  0xbe, 0x42, 0x2d, 0x0c, 0x3e, 0x2c, 0x4b, 0x83, 0x3e, 0xa6, 0xf2, 0x99,
  0xbe, 0x1d, 0x75, 0xc8, 0x3d, 0x15, 0xdc, 0xa2, 0xbe, 0x74, 0x1a, 0x38,
  0x3d, 0xef, 0xdf, 0x07, 0xbe, 0xe2, 0x92, 0x87, 0x3e, 0x5b, 0x3e, 0x0d,
  0xbe, 0x0d, 0x37, 0x0b, 0x3e, 0x83, 0x08, 0x7a, 0xbe, 0x40, 0x78, 0x0d,
  0x3e, 0x44, 0x1d, 0x84, 0xbe, 0x0e, 0x5f, 0x58, 0xbd, 0x7b, 0xdc, 0x6b,
  0xbe, 0xb3, 0x9c, 0xb9, 0xbe, 0xa3, 0x33, 0x35, 0x3d, 0xf5, 0x57, 0xb3,
  0xbd, 0x13, 0xc8, 0xc9, 0x3d, 0xe6, 0x9e, 0xa3, 0xbe, 0xa2, 0x4b, 0x00,
  0x3e, 0x7e, 0xda, 0x0e, 0x3e, 0x89, 0x72, 0x97, 0x3d, 0x9b, 0xe6, 0x96,
  0x3e, 0x26, 0xb9, 0x8d, 0xbe, 0x9c, 0x7c, 0x6e, 0xbe, 0x6c, 0x21, 0x44,
  0x3d, 0xd1, 0x7c, 0x24, 0xbe, 0x14, 0x20, 0x93, 0xbe, 0x45, 0x21, 0x1a,
  0x3e, 0xbe, 0x20, 0x88, 0xbd, 0x64, 0xca, 0xd0, 0x3d, 0xcd, 0x42, 0x55,
  0x3d, 0x9c, 0x1f, 0x75, 0x3e, 0x11, 0x98, 0xa8, 0x3c, 0x86, 0x3f, 0x9b,
  0x3e, 0x2b, 0x20, 0x9d, 0x3e, 0xe8, 0xa8, 0x02, 0x3e, 0xa9, 0x15, 0x04,
  0xbe, 0x0d, 0xad, 0xf1, 0xbd, 0xc0, 0xaa, 0xe4, 0xbd, 0xfb, 0x68, 0xac,
  0x3e, 0x15, 0x79, 0x00, 0x3e, 0x59, 0x61, 0x29, 0x3e, 0xbf, 0x1a, 0xea,
  0x3e, 0xbf, 0xbb, 0xcc, 0x3d, 0x5e, 0x38, 0xfc, 0x3d, 0x66, 0x48, 0x7d,
  0x3e, 0x02, 0x6e, 0x7c, 0xbe, 0x27, 0x72, 0x10, 0x3d, 0xfc, 0xfe, 0x2c,
  0x3e, 0x7c, 0x42, 0xc9, 0x3e, 0x9d, 0x33, 0xb6, 0xbe, 0x25, 0x73, 0x84,
  0xbd, 0x6d, 0x0a, 0xc0, 0xbe, 0x08, 0x17, 0xad, 0x3d, 0xbf, 0x7e, 0xbd,
  0x3e, 0xe6, 0xe8, 0x07, 0xbe, 0x35, 0x7c, 0xc6, 0xbb, 0x97, 0xc6, 0x07,
  0xbe, 0x89, 0x74, 0xe0, 0x3e, 0xd8, 0x5a, 0x9a, 0xbc, 0x38, 0x5b, 0x2a,
  0xbe, 0xab, 0xe9, 0x4e, 0xbd, 0x54, 0x64, 0xc0, 0xbe, 0x86, 0xd9, 0xc1,
  0x3d, 0x85, 0x3b, 0xdf, 0xbd, 0xa4, 0x58, 0x5f, 0xbe, 0xf9, 0xbb, 0x57,
  0xbe, 0x9d, 0xad, 0x21, 0x3e, 0x8b, 0xac, 0x93, 0x3e, 0x8d, 0x86, 0xbb,
  0xbc, 0x62, 0xbb, 0x8e, 0x3e, 0x9e, 0xae, 0x8b, 0x3d, 0x9b, 0x1a, 0x4a,
  0x3d, 0xbc, 0x74, 0x19, 0xbe, 0xe3, 0x7e, 0xc9, 0xbd, 0x32, 0x88, 0x18,
  0xbe, 0x4d, 0x21, 0x5f, 0xbe, 0xde, 0x2e, 0xa8, 0x3e, 0xa4, 0x84, 0xc4,
  0x3d, 0x3f, 0x08, 0x86, 0x3e, 0x56, 0xf4, 0x31, 0x3e, 0x62, 0x71, 0xd8,
  0xbe, 0x84, 0xc7, 0xee, 0xbd, 0x95, 0xaa, 0x42, 0x3e, 0xd9, 0xa1, 0x2b,
  0x3e, 0x4e, 0xc8, 0xa7, 0xbd, 0x8e, 0xf6, 0xf7, 0xbd, 0xc4, 0x19, 0xa1,
  0xbe, 0x35, 0x29, 0xfa, 0x3d, 0x96, 0x80, 0x45, 0x3e, 0x1b, 0x41, 0x9f,
  0x3d, 0xaf, 0xd2, 0x0d, 0xbe, 0x59, 0x80, 0xa4, 0x3e, 0xd9, 0xfa, 0x4e,
  0xbe, 0xe3, 0x2a, 0x3a, 0xbd, 0x2c, 0xf0, 0xf1, 0xbd, 0x48, 0xea, 0x3c,
  0x3e, 0x59, 0x4b, 0x9c, 0xbd, 0xae, 0x17, 0x9d, 0xbc, 0xf6, 0xea, 0xb1,
  0xbd, 0x50, 0x42, 0x9c, 0x3b, 0xdc, 0xac, 0x80, 0xbe, 0xef, 0xaf, 0x1b,
  0xbe, 0xf7, 0x42, 0x58, 0x3c, 0x6b, 0x7f, 0x7f, 0xbe, 0x5f, 0x35, 0x55,
  0xbe, 0xb7, 0x5f, 0x19, 0x3d, 0x54, 0x05, 0x05, 0x3e, 0x20, 0xa7, 0xb8,
  0x3e, 0x57, 0x62, 0x16, 0x3e, 0xe9, 0xec, 0x34, 0x3d, 0x89, 0xf2, 0xa9,
  0xbe, 0x61, 0xbb, 0xaa, 0x3e, 0x2b, 0xd6, 0x2d, 0x3e, 0x27, 0x18, 0x94,
  0x3d, 0x3d, 0xc5, 0xa7, 0xbe, 0x1a, 0x79, 0x14, 0xbd, 0x24, 0xcb, 0xfb,
  0x3d, 0xc1, 0xb3, 0x64, 0xbe, 0x76, 0xdc, 0x06, 0xbe, 0x04, 0x15, 0xed,
  0xbd, 0x65, 0x8b, 0x86, 0x3d, 0x24, 0x56, 0x10, 0x3e, 0x1a, 0x7d, 0xfb,
  0x3d, 0x21, 0x74, 0x11, 0xbe, 0x6b, 0x0d, 0x8c, 0x3d, 0xe3, 0x4c, 0x26,
  0xbe, 0x53, 0x75, 0x26, 0xbe, 0x1e, 0x9c, 0xb0, 0xbd, 0x49, 0x71, 0x9a,
  0x3e, 0x7c, 0xbc, 0x07, 0x3d, 0x22, 0x75, 0x76, 0x3e, 0x9f, 0x9f, 0xbb,
  0x3d, 0x3c, 0xb0, 0x8d, 0xbd, 0x48, 0x5d, 0xad, 0x3e, 0x09, 0x79, 0x3c,
  0xbe, 0x59, 0x34, 0x99, 0x3e, 0x89, 0x6c, 0x4c, 0x3e, 0x3c, 0x74, 0x35,
  0x3e, 0xcc, 0xc3, 0xa9, 0x3e, 0xc0, 0x06, 0x6c, 0x3e, 0xb2, 0x8a, 0x7b,
  0xbe, 0x3c, 0xae, 0x85, 0x3e, 0xd1, 0x11, 0x4b, 0x3d, 0xb8, 0x45, 0xc3,
  0x3d, 0x4b, 0xd3, 0xa0, 0x3e, 0xba, 0xb6, 0x44, 0xbe, 0x9e, 0x4c, 0x06,
  0xbe, 0xa6, 0x42, 0xd3, 0xbd, 0xab, 0x3b, 0x26, 0xbe, 0x64, 0xcf, 0x35,
  0x3e, 0x87, 0xb6, 0xb4, 0x3e, 0x98, 0x4d, 0x79, 0xbb, 0x8a, 0xab, 0x00,
  0x3d, 0xe9, 0x92, 0x7e, 0x3e, 0x79, 0xe2, 0xb4, 0x3e, 0xc2, 0xb9, 0xd8,
  0x3c, 0x69, 0x88, 0x59, 0xbe, 0x34, 0xa2, 0x4a, 0x3e, 0x1f, 0xe5, 0x8f,
  0x3d, 0x7f, 0x5d, 0xfa, 0xbd, 0x8c, 0x0c, 0xfa, 0xbd, 0x98, 0x6b, 0x38,
  0xbe, 0x02, 0x74, 0x01, 0x3e, 0xb6, 0xe1, 0x13, 0xbe, 0xba, 0x3b, 0x17,
  0xbe, 0xa1, 0x29, 0xd5, 0x3d, 0xfd, 0x0c, 0xb9, 0x3d, 0xb3, 0x89, 0x9b,
  0x3e, 0x07, 0x30, 0x84, 0x3b, 0x1a, 0xbf, 0xb5, 0x3e, 0x08, 0x03, 0xa0,
  0xbd, 0x22, 0x3d, 0xf5, 0x3c, 0xe2, 0xf4, 0x66, 0xbe, 0xb3, 0xd2, 0x0c,
  0xbe, 0x4c, 0x4d, 0x9b, 0x3e, 0xc1, 0xa9, 0x80, 0x3e, 0x08, 0xbd, 0x9b,
  0xbd, 0xdb, 0xc5, 0x22, 0xbe, 0xba, 0x5e, 0xe1, 0xbb, 0x87, 0xc9, 0xed,
  0x3d, 0x66, 0x96, 0x8d, 0xbe, 0x4f, 0x7a, 0xa8, 0x3e, 0xd6, 0x42, 0xb4,
  0xbe, 0x85, 0x41, 0xa3, 0xbe, 0xfb, 0xfc, 0x52, 0x3e, 0x2a, 0x0b, 0x32,
  0xbe, 0x29, 0x34, 0xa8, 0xbe, 0x9d, 0x08, 0x50, 0xbd, 0x99, 0xfb, 0x97,
  0x3d, 0x45, 0x32, 0x94, 0xbe, 0x52, 0x7c, 0x32, 0x3e, 0x45, 0xfa, 0xab,
  0x3e, 0x48, 0xd6, 0x7c, 0xbe, 0xc5, 0x09, 0xc8, 0x3d, 0x84, 0x8f, 0x35,
  0xbe, 0x7e, 0xb8, 0x2e, 0x3e, 0x99, 0x9f, 0x40, 0x3e, 0xae, 0xa0, 0x75,
  0x3e, 0x89, 0x63, 0xda, 0xbb, 0x46, 0xc5, 0x1e, 0x3e, 0xa7, 0x96, 0x8c,
  0xbe, 0x8f, 0xe9, 0xb6, 0x3e, 0x43, 0xc5, 0x49, 0x3e, 0x8c, 0x6f, 0x71,
  0xbe, 0x5a, 0xde, 0xcf, 0xbd, 0xad, 0xd9, 0x7b, 0x3e, 0x9d, 0x57, 0x0e,
  0xbf, 0x9c, 0x97, 0x92, 0x3e, 0x17, 0x90, 0xad, 0x3e, 0x19, 0x3b, 0x21,
  0x3e, 0xe3, 0xd7, 0x89, 0xbe, 0x36, 0x97, 0x4d, 0xbc, 0xa6, 0x9b, 0x85,
  0xbc, 0xc0, 0xb1, 0xc5, 0xbd, 0xbc, 0x04, 0x51, 0xbe, 0x50, 0xac, 0x76,
  0x3e, 0xfc, 0x2c, 0x3b, 0x3d, 0x63, 0xa4, 0x72, 0xbe, 0x0d, 0x59, 0xb2,
  0x3e, 0xdb, 0xc6, 0x5a, 0xbe, 0x8f, 0x1a, 0x28, 0xbd, 0x92, 0x84, 0xe6,
  0xbd, 0x0f, 0x10, 0xa9, 0xbe, 0x38, 0x5f, 0x8c, 0x3d, 0xbd, 0x3f, 0x3f,
  0xbe, 0xbb, 0xc5, 0x41, 0xbe, 0x0b, 0x13, 0xc3, 0xbd, 0x2b, 0x45, 0xad,
  0x3d, 0x34, 0xd3, 0xde, 0x3d, 0xc9, 0x86, 0x9c, 0xbe, 0x93, 0x20, 0xa8,
  0xbe, 0xa6, 0x47, 0x82, 0xbc, 0x50, 0x9e, 0x17, 0xbe, 0x61, 0x2c, 0x8a,
  0x3e, 0x2f, 0x6f, 0x99, 0xbd, 0xcc, 0x2c, 0x9c, 0x3d, 0x15, 0xb6, 0x8e,
  0x3e, 0x93, 0xd4, 0x98, 0x3e, 0x2b, 0x6b, 0x69, 0x3d, 0x4b, 0x34, 0x3d,
  0x3e, 0x34, 0xf4, 0xf9, 0xbd, 0x90, 0x9d, 0x89, 0x3e, 0xf6, 0xb4, 0x8b,
  0x3d, 0xce, 0xe9, 0x3f, 0xbe, 0x1e, 0xd7, 0xaf, 0x3e, 0x57, 0xea, 0x6d,
  0x3e, 0xa7, 0x0a, 0x00, 0xbf, 0xf9, 0xb1, 0x82, 0xbe, 0x7f, 0xcc, 0x9d,
  0x3e, 0x43, 0x1e, 0x43, 0xbd, 0x19, 0xde, 0x6f, 0xbd, 0xc3, 0x16, 0x88,
  0xbd, 0xa1, 0x56, 0x74, 0x3e, 0xe4, 0x56, 0x40, 0xbd, 0xfa, 0x6e, 0x1e,
  0xbe, 0xed, 0x54, 0x1a, 0x3e, 0x6c, 0xe1, 0x99, 0x3e, 0xa2, 0x6e, 0x96,
  0x3e, 0x7c, 0xb0, 0xf8, 0x3d, 0xfd, 0xef, 0x16, 0x3e, 0xcd, 0xe7, 0x12,
  0xbe, 0x85, 0xf1, 0x85, 0xbe, 0x12, 0x50, 0xe7, 0x39, 0x77, 0x2a, 0xa7,
  0x3d, 0x6c, 0xc8, 0x0c, 0xbe, 0xa7, 0xa4, 0x1d, 0xbe, 0x40, 0x2d, 0x83,
  0xbe, 0x82, 0xe4, 0x76, 0x3e, 0x6a, 0xec, 0xa8, 0x3e, 0x39, 0xe4, 0x3a,
  0xbe, 0xaf, 0xae, 0xe7, 0xbd, 0xb6, 0x57, 0x3b, 0x3d, 0xbe, 0xf3, 0x81,
  0xbd, 0x16, 0x06, 0x78, 0x3d, 0x3f, 0x8e, 0x71, 0x3e, 0xf6, 0x15, 0x1f,
  0x3e, 0xb3, 0x36, 0x4a, 0x3e, 0x6f, 0x21, 0x0c, 0xbc, 0x46, 0x5c, 0x34,
  0x3e, 0x6b, 0x68, 0xea, 0xbd, 0xbb, 0xe5, 0xa7, 0xbe, 0xfd, 0xc6, 0x19,
  0xbe, 0x0e, 0x03, 0x8c, 0xbd, 0x8d, 0x2d, 0x21, 0xbe, 0x82, 0x47, 0x5d,
  0xbe, 0xf1, 0xf3, 0x95, 0xbe, 0xcb, 0xaa, 0x71, 0xbe, 0x58, 0x88, 0xeb,
  0xbb, 0x76, 0x8a, 0xf9, 0x3b, 0xf8, 0x3a, 0x37, 0x3e, 0x50, 0x39, 0x43,
  0xbe, 0xc6, 0x56, 0xb6, 0x3e, 0x46, 0xd3, 0x53, 0x3e, 0x8a, 0x66, 0xed,
  0x3e, 0xc5, 0xff, 0x9c, 0xbd, 0x46, 0x63, 0x55, 0x3e, 0xe8, 0x53, 0x5c,
  0xbc, 0x16, 0x87, 0x24, 0x3c, 0x5c, 0x4c, 0x84, 0x3e, 0xed, 0x2c, 0xcb,
  0xbc, 0xf5, 0xb0, 0xe3, 0xbd, 0xde, 0x80, 0xbb, 0x3d, 0x15, 0x0c, 0x43,
  0xbe, 0x96, 0x61, 0x93, 0xbd, 0x6d, 0xdf, 0x14, 0xbe, 0xca, 0x5b, 0x11,
  0xbd, 0xc5, 0x61, 0x10, 0xbe, 0x98, 0x78, 0x05, 0xbf, 0xec, 0x87, 0x37,
  0xbd, 0x63, 0x90, 0xeb, 0x3e, 0x70, 0x77, 0x02, 0x3f, 0x5d, 0x82, 0x1b,
  0x3e, 0x52, 0x10, 0xa6, 0xbe, 0xe9, 0x4e, 0x24, 0xbf, 0x5a, 0x33, 0x22,
  0x3e, 0x02, 0x5f, 0xf5, 0xba, 0xf9, 0x85, 0xf8, 0x3d, 0x79, 0x0c, 0x7f,
  0xbe, 0x7b, 0x7c, 0xd9, 0x3d, 0xdd, 0x83, 0x09, 0xbe, 0x1b, 0xc6, 0x80,
  0x3e, 0x56, 0xa3, 0x6b, 0xbe, 0x14, 0x9e, 0x91, 0xbd, 0x02, 0xed, 0x16,
  0x3e, 0x0f, 0x60, 0xb4, 0x3d, 0xb3, 0x0c, 0x0b, 0xbe, 0x41, 0xf9, 0x5b,
  0x3b, 0x13, 0xb8, 0x0b, 0x3d, 0xb7, 0x80, 0x9d, 0x3d, 0x2a, 0x74, 0xc0,
  0xbe, 0xc7, 0xf6, 0xa3, 0x3b, 0xc7, 0x55, 0xfb, 0xbe, 0x61, 0x1f, 0x12,
  0xbe, 0x2d, 0x1a, 0xff, 0x3e, 0x0f, 0xcd, 0x7b, 0xbe, 0x9e, 0x34, 0x52,
  0x3e, 0xd3, 0xdb, 0x11, 0x3c, 0x6f, 0xea, 0xb6, 0x3e, 0x26, 0x8e, 0xa8,
  0x3e, 0x2d, 0xed, 0x94, 0x3e, 0x31, 0x22, 0x37, 0xbd, 0x16, 0xc6, 0xd3,
  0x3d, 0x24, 0x18, 0x88, 0xbc, 0x28, 0xbf, 0x1a, 0xbe, 0xeb, 0x4e, 0x68,
  0xbd, 0x1d, 0xac, 0x6c, 0xbe, 0x8a, 0x01, 0x5a, 0x3e, 0x50, 0x86, 0x89,
  0xbe, 0x9e, 0xc5, 0x8f, 0xbe, 0xfd, 0xf5, 0x5b, 0xbe, 0xe8, 0x11, 0xc2,
  0x3e, 0xfc, 0x01, 0xba, 0xbd, 0xed, 0x09, 0xc5, 0x3e, 0xeb, 0x5a, 0x8f,
  0x3d, 0x3e, 0x1c, 0x02, 0xbc, 0xb4, 0x80, 0x90, 0xbe, 0x1a, 0xd4, 0xe7,
  0x3d, 0x80, 0x23, 0x99, 0x3e, 0xae, 0x9e, 0x2d, 0x3e, 0xa6, 0xab, 0x01,
  0xbe, 0x28, 0x21, 0x94, 0x3d, 0x8e, 0x19, 0x7b, 0x3d, 0x7c, 0xee, 0x62,
  0xbe, 0x09, 0x12, 0x5d, 0x3e, 0xe3, 0x7a, 0x21, 0xbe, 0x63, 0x10, 0x52,
  0xbe, 0xbc, 0x8e, 0xa0, 0x3e, 0xdd, 0x11, 0xc4, 0x3d, 0x1d, 0x83, 0xa7,
  0xbd, 0x76, 0x41, 0x33, 0xbe, 0x3a, 0xc5, 0x2e, 0xbc, 0x72, 0x6b, 0xac,
  0x3e, 0x95, 0x1d, 0x64, 0x3c, 0x6f, 0x11, 0x8e, 0x3e, 0xf6, 0xd4, 0x6b,
  0x3d, 0x7a, 0xf9, 0x45, 0x3e, 0xfc, 0xb5, 0x31, 0xbe, 0x2f, 0x7f, 0x6e,
  0xbe, 0xed, 0x81, 0x53, 0x3c, 0xca, 0x04, 0x35, 0xbe, 0xab, 0xe9, 0x15,
  0x3e, 0x02, 0x20, 0xee, 0x3e, 0x85, 0x62, 0x0c, 0x3d, 0x1d, 0x08, 0xda,
  0x3d, 0xf1, 0xff, 0xfd, 0xbb, 0x1f, 0xf7, 0x1d, 0x3e, 0xed, 0xaa, 0x87,
  0xbe, 0xe4, 0x80, 0x27, 0x3e, 0x45, 0x32, 0x9a, 0x3e, 0x57, 0x1a, 0x62,
  0x3e, 0xcd, 0x79, 0x84, 0x3e, 0xe6, 0x06, 0xf1, 0xbd, 0x73, 0x5e, 0xd8,
  0xbc, 0x9d, 0x1c, 0x81, 0xbe, 0x28, 0x21, 0xac, 0x3e, 0x7b, 0x64, 0xa5,
  0xbe, 0xec, 0x10, 0xe3, 0xbd, 0x5d, 0x8f, 0x1f, 0xbe, 0xe2, 0xb3, 0x21,
  0xbc, 0x5b, 0x37, 0x2f, 0x3d, 0x40, 0x51, 0x98, 0xbe, 0x15, 0x9f, 0xd0,
  0xbd, 0xc3, 0x29, 0x30, 0xbe, 0x10, 0xa6, 0x2c, 0xbd, 0x90, 0x7f, 0x62,
  0xbe, 0x35, 0xca, 0x1f, 0xbe, 0x00, 0xd0, 0xd5, 0x3d, 0x67, 0xf0, 0x7d,
  0x3e, 0xaf, 0xc2, 0xb2, 0x3e, 0xfb, 0xaf, 0x13, 0x3e, 0xa2, 0x17, 0xa8,
  0x3e, 0x83, 0xd8, 0xa6, 0x3e, 0x0c, 0x13, 0x76, 0x3e, 0x91, 0x91, 0x91,
  0x3d, 0xa6, 0x5c, 0xd0, 0x3d, 0x94, 0xa2, 0x9d, 0xbd, 0x25, 0x94, 0x79,
  0xbe, 0x13, 0xbc, 0x21, 0xbe, 0x3a, 0xe0, 0xa5, 0x3d, 0xbb, 0xb4, 0xaa,
  0xbe, 0x9a, 0xed, 0x71, 0xbe, 0x85, 0x09, 0xc2, 0xbd, 0x88, 0x72, 0x38,
  0xbe, 0x68, 0xa8, 0x4d, 0x3e, 0x8a, 0x0c, 0x98, 0x3c, 0x9e, 0x93, 0x60,
  0xbe, 0x59, 0x06, 0x7f, 0x3e, 0x8e, 0xd6, 0x60, 0xbe, 0xa0, 0x61, 0xc0,
  0x3e, 0xa3, 0xbd, 0x72, 0xbe, 0xb1, 0xf0, 0xad, 0xbd, 0x57, 0x6a, 0x31,
  0xbe, 0xe5, 0x1a, 0x3e, 0xbe, 0x20, 0x28, 0x48, 0x3c, 0x8b, 0x82, 0x80,
  0xbe, 0x07, 0xdc, 0x0d, 0xbd, 0x7d, 0xb1, 0x9b, 0xbc, 0xc9, 0x7c, 0x77,
  0x3b, 0x2f, 0x1a, 0x93, 0xbd, 0x90, 0xe4, 0x81, 0x3e, 0x16, 0x4e, 0xa2,
  0xbe, 0x56, 0xeb, 0x7b, 0x3e, 0xb2, 0xb5, 0xca, 0x3d, 0x72, 0xc7, 0x6f,
  0xbe, 0xed, 0x92, 0xc6, 0x3d, 0x47, 0xe7, 0x9a, 0xbe, 0xaa, 0x0b, 0xc0,
  0xbe, 0x00, 0x8f, 0x79, 0xbe, 0xe8, 0xad, 0xd0, 0x3e, 0x90, 0x7a, 0x33,
  0xbe, 0x1d, 0x7b, 0x25, 0xbd, 0x48, 0x01, 0x9b, 0xbd, 0x22, 0xfc, 0xa0,
  0x3d, 0xf5, 0x96, 0x05, 0xbe, 0xba, 0x6b, 0xff, 0xbd, 0xab, 0x51, 0x95,
  0xbe, 0x2c, 0x83, 0x58, 0x3e, 0xe4, 0x42, 0xbd, 0x3e, 0x6a, 0x13, 0x0a,
  0x3e, 0xa4, 0x51, 0x2f, 0x3e, 0x66, 0x32, 0x4f, 0xbd, 0x7d, 0x8e, 0x66,
  0xbc, 0x35, 0x42, 0xc5, 0xbd, 0x48, 0x76, 0x11, 0xbe, 0x7d, 0xe4, 0x0b,
  0x3d, 0xb1, 0xeb, 0x96, 0x3e, 0xa4, 0x10, 0xc5, 0xbd, 0x26, 0xd7, 0x29,
  0x3e, 0x6e, 0xe3, 0x8c, 0x3d, 0x0f, 0x5c, 0x2a, 0xbe, 0x6f, 0xbd, 0x21,
  0xbe, 0xf7, 0x9f, 0xf3, 0xbd, 0x4c, 0x0b, 0x91, 0xbe, 0x0f, 0xa5, 0x84,
  0x3e, 0xc8, 0x72, 0xa7, 0xbe, 0x84, 0x3f, 0x08, 0xbe, 0xa7, 0xa2, 0xac,
  0x3d, 0x3c, 0x88, 0xaf, 0x3e, 0x54, 0x49, 0x70, 0xbc, 0x9c, 0xee, 0x34,
  0x3e, 0x22, 0x25, 0x53, 0x3d, 0x1a, 0x54, 0x2d, 0xbe, 0x17, 0x2f, 0x64,
  0xbc, 0x2f, 0xfd, 0x5c, 0xbe, 0x0f, 0x2f, 0xac, 0x3e, 0x54, 0xde, 0x6d,
  0x3e, 0x1d, 0xcd, 0x1b, 0xbe, 0xc8, 0x3b, 0x19, 0xbe, 0x8a, 0x68, 0x08,
  0xbd, 0x69, 0x8f, 0xd3, 0xbe, 0xd8, 0x3b, 0x1c, 0xbd, 0x26, 0x14, 0xa5,
  0xbd, 0xaf, 0x21, 0x68, 0x3e, 0x99, 0x66, 0x2d, 0xbe, 0x38, 0xba, 0x26,
  0xbe, 0xae, 0xc1, 0x9d, 0xbe, 0x03, 0x08, 0x4e, 0x3e, 0x5c, 0x45, 0x35,
  0xbd, 0x72, 0xf8, 0x23, 0xbe, 0x21, 0xd4, 0x75, 0x3e, 0x33, 0x02, 0x02,
  0x3e, 0x74, 0x75, 0x64, 0xbe, 0x8d, 0xee, 0xa7, 0xbd, 0x20, 0x54, 0x23,
  0x3d, 0xb4, 0x99, 0x97, 0x3e, 0x68, 0x76, 0x8e, 0x3d, 0xb9, 0x60, 0x05,
  0xbf, 0xd5, 0x01, 0x85, 0x3e, 0xde, 0xe6, 0x24, 0x3e, 0x2b, 0x28, 0xe3,
  0xbd, 0x57, 0x74, 0x16, 0xbf, 0x9c, 0x75, 0x8c, 0xbe, 0x72, 0xa3, 0x38,
  0xbe, 0xf4, 0x9b, 0x5c, 0x3e, 0x45, 0x57, 0xf0, 0x3c, 0x15, 0x4a, 0x57,
  0x3e, 0x4a, 0x20, 0x69, 0x3e, 0x7b, 0xba, 0x3d, 0xbe, 0x92, 0x06, 0x12,
  0x3e, 0x7b, 0x11, 0x62, 0xbe, 0xdf, 0x9e, 0x2e, 0xbd, 0xfe, 0xf9, 0xcc,
  0x3d, 0x20, 0xb3, 0xc3, 0xbe, 0x59, 0x34, 0xa5, 0xbe, 0xc8, 0x0a, 0x27,
  0xbe, 0xbb, 0xd4, 0x6c, 0xbe, 0x3f, 0xfa, 0x40, 0xbe, 0x70, 0x78, 0xe5,
  0x3c, 0xd0, 0x01, 0x95, 0x3e, 0xc6, 0x63, 0x94, 0x3b, 0x19, 0x79, 0x9d,
  0xbe, 0x81, 0x95, 0xa2, 0x3d, 0x9b, 0x53, 0x14, 0x3e, 0x89, 0xb6, 0xdc,
  0xbd, 0x58, 0xb5, 0x09, 0x3d, 0x92, 0x7c, 0x6e, 0xbe, 0x2d, 0x6e, 0x80,
  0xbd, 0x40, 0x93, 0x54, 0xbe, 0x9a, 0x80, 0xdb, 0x3d, 0xd8, 0x75, 0x8a,
  0xbe, 0xd7, 0xc0, 0x80, 0x3e, 0xf0, 0x8e, 0x8b, 0x3e, 0x01, 0xcb, 0x04,
  0x3c, 0xd9, 0xee, 0x46, 0xbe, 0x04, 0x2e, 0x5b, 0x3e, 0x84, 0x1c, 0x86,
  0xbe, 0x4b, 0x46, 0x3b, 0xbe, 0x2a, 0x99, 0x01, 0x08, 0x14, 0x10, 0x01,
  0x42, 0x41, 0x53, 0x74, 0x61, 0x74, 0x65, 0x66, 0x75, 0x6c, 0x50, 0x61,
  0x72, 0x74, 0x69, 0x74, 0x69, 0x6f, 0x6e, 0x65, 0x64, 0x43, 0x61, 0x6c,
  0x6c, 0x2f, 0x73, 0x65, 0x71, 0x75, 0x65, 0x6e, 0x74, 0x69, 0x61, 0x6c,
  0x2f, 0x64, 0x65, 0x6e, 0x73, 0x65, 0x2f, 0x42, 0x69, 0x61, 0x73, 0x41,
  0x64, 0x64, 0x2f, 0x52, 0x65, 0x61, 0x64, 0x56, 0x61, 0x72, 0x69, 0x61,
  0x62, 0x6c, 0x65, 0x4f, 0x70, 0x3a, 0x30, 0x4a, 0x50, 0x00, 0x50, 0x9f,
  0xb9, 0x1e, 0x88, 0x7f, 0xbd, 0x62, 0xe2, 0x5f, 0x3d, 0x4a, 0x52, 0x4d,
  0x3e, 0xb7, 0xc9, 0xee, 0x3d, 0xc4, 0x7a, 0x97, 0x3d, 0x12, 0xb2, 0x61,
  0xbd, 0x25, 0xe0, 0x84, 0x3d, 0x28, 0x6e, 0x8c, 0xbc, 0xdd, 0x9a, 0x83,
  0xbc, 0xf9, 0x82, 0x9f, 0x3d, 0x66, 0x96, 0x54, 0x3d, 0x42, 0x4c, 0x13,
  0xbd, 0x8e, 0x21, 0xf7, 0x3c, 0xfc, 0x61, 0xf0, 0x3d, 0xa1, 0xe9, 0x30,
  0xbd, 0xd4, 0xe8, 0xd7, 0xb9, 0xee, 0x49, 0xb3, 0x3c, 0xee, 0x28, 0x73,
  0x3c, 0x9a, 0x76, 0xdc, 0x3d, 0x52, 0x1f, 0x63, 0x6f, 0x6e, 0x76, 0x65,
  0x72, 0x74, 0x65, 0x64, 0x20, 0x66, 0x72, 0x6f, 0x6d, 0x20, 0x2f, 0x74,
  0x6d, 0x70, 0x2f, 0x73, 0x61, 0x76, 0x65, 0x64, 0x5f, 0x6d, 0x6f, 0x64,
  0x65, 0x6c, 0x5a, 0x13, 0x0a, 0x01, 0x78, 0x12, 0x0e, 0x0a, 0x0c, 0x08,
  0x01, 0x12, 0x08, 0x0a, 0x02, 0x08, 0x01, 0x0a, 0x02, 0x08, 0x27, 0x62,
  0x1a, 0x0a, 0x08, 0x6f, 0x75, 0x74, 0x70, 0x75, 0x74, 0x5f, 0x30, 0x12,
  0x0e, 0x0a, 0x0c, 0x08, 0x01, 0x12, 0x08, 0x0a, 0x02, 0x08, 0x01, 0x0a,
  0x02, 0x08, 0x04, 0x42, 0x04, 0x0a, 0x00, 0x10, 0x0c, 0x42, 0x0e, 0x0a,
  0x0a, 0x61, 0x69, 0x2e, 0x6f, 0x6e, 0x6e, 0x78, 0x2e, 0x6d, 0x6c, 0x10,
  0x02
};
unsigned int trained_onnx_len = 6289;
const char *trained_onnx_hash = "aac65a187b6413b8877a6059483c89d78f7b315f";
